00
00
04
fa
05
0c
f8
fc
06
0c
ec
11
0a
03
f2
06
00
fb
06
ff
00
fc
fb
0b
03
f5
ed
03
07
07
f9
0a
05
03
f8
02
fe
f6
ea
f3
e5
fa
09
fd
ee
06
04
f3
03
07
0d
09
f0
f9
12
06
fd
05
09
f2
11
05
02
f3
f3
fa
03
f0
f8
03
03
f1
ed
f5
06
f5
ee
ff
10
08
fd
02
05
02
28
00
fc
fb
0f
01
fb
f5
20
04
e3
11
f0
fd
f9
01
ed
fb
f8
06
fe
08
0d
fd
ff
03
f5
ea
0b
00
08
f4
03
ef
fa
07
f9
f3
03
03
fe
fd
0d
10
fc
fc
fc
f5
13
08
07
f8
0c
0d
05
02
f7
f5
03
09
e3
e4
02
0b
f2
fc
11
fd
e3
ea
f5
fc
e2
f5
f9
06
09
04
09
02
f4
fd
0b
02
fb
05
04
fb
fe
01
f9
05
fa
06
fb
ee
f9
00
11
f9
03
f7
f4
07
04
09
0a
0e
01
0a
05
0f
15
10
f9
13
f9
f6
f8
04
05
fa
08
f9
05
ee
eb
f4
05
04
00
05
09
06
07
07
f3
f8
fe
fd
fc
fe
f0
fa
10
00
ef
eb
f9
ff
06
fe
fd
f7
f7
f3
08
00
fa
ec
fc
fc
f7
d8
f5
fd
f6
fa
ee
fb
04
09
fc
01
08
0a
03
0b
00
f5
08
ff
f9
fc
08
06
fe
fc
ee
00
04
ff
f0
f8
05
07
ff
f4
f3
03
0a
02
0a
04
10
08
04
f8
09
07
fc
dd
11
06
fa
fd
fe
03
f6
ff
eb
ec
f7
fc
03
fe
03
01
f7
f9
fe
ff
0e
0e
06
08
02
fa
f6
00
f5
fc
04
17
e0
f6
01
06
d2
e7
13
f3
02
f1
f1
07
0b
08
ff
0c
01
fc
01
04
fa
ff
0d
01
15
02
03
fa
fa
f9
fa
0c
f5
f9
fb
11
e2
f9
00
f8
06
00
0d
10
fe
1c
fc
f1
0b
0b
0a
0b
17
ec
e8
ee
0c
05
f6
ff
f6
f1
fb
01
f8
0c
f4
f3
05
0e
fd
01
01
ff
03
07
09
01
05
02
f9
09
08
f5
04
01
05
f6
01
f7
fc
f2
f9
ef
02
0a
fa
01
f4
fa
e9
e4
fe
12
f8
03
f5
fc
08
f3
f8
0e
08
ef
05
05
f7
f6
fe
09
f5
0d
05
fe
fd
fe
01
fd
13
03
05
00
f7
fa
fc
f7
ff
0b
04
01
f0
eb
04
ff
d0
05
f7
e5
f0
0e
fa
e9